unsigned char sine_model_quantized_tflite[] = {
  0x20, 0x00, 0x00, 0x00, 0x54, 0x46, 0x4c, 0x33, 0x00, 0x00, 0x00, 0x00,
  0x14, 0x00, 0x20, 0x00, 0x04, 0x00, 0x08, 0x00, 0x0c, 0x00, 0x10, 0x00,
  0x14, 0x00, 0x00, 0x00, 0x18, 0x00, 0x1c, 0x00, 0x14, 0x00, 0x00, 0x00,
  0x03, 0x00, 0x00, 0x00, 0x94, 0x0b, 0x00, 0x00, 0xf4, 0x06, 0x00, 0x00,
  0xdc, 0x06, 0x00, 0x00, 0xbc, 0x00, 0x00, 0x00, 0x84, 0x00, 0x00, 0x00,
  0x04, 0x00, 0x00, 0x00, 0x01, 0x00, 0x00, 0x00, 0x10, 0x00, 0x00, 0x00,
  0x00, 0x00, 0x0a, 0x00, 0x10, 0x00, 0x04, 0x00, 0x08, 0x00, 0x0c, 0x00,
  0x0a, 0x00, 0x00, 0x00, 0x40, 0x00, 0x00, 0x00, 0x1c, 0x00, 0x00, 0x00,
  0x04, 0x00, 0x00, 0x00, 0x0f, 0x00, 0x00, 0x00, 0x73, 0x65, 0x72, 0x76,
  0x69, 0x6e, 0x67, 0x5f, 0x64, 0x65, 0x66, 0x61, 0x75, 0x6c, 0x74, 0x00,
  0x01, 0x00, 0x00, 0x00, 0x04, 0x00, 0x00, 0x00, 0xbc, 0xff, 0xff, 0xff,
  0x08, 0x00, 0x00, 0x00, 0x09, 0x00, 0x00, 0x00, 0x07, 0x00, 0x00, 0x00,
  0x64, 0x65, 0x6e, 0x73, 0x65, 0x5f, 0x38, 0x00, 0x01, 0x00, 0x00, 0x00,
  0x04, 0x00, 0x00, 0x00, 0xd2, 0xf9, 0xff, 0xff, 0x04, 0x00, 0x00, 0x00,
  0x0d, 0x00, 0x00, 0x00, 0x64, 0x65, 0x6e, 0x73, 0x65, 0x5f, 0x36, 0x5f,
  0x69, 0x6e, 0x70, 0x75, 0x74, 0x00, 0x00, 0x00, 0x01, 0x00, 0x00, 0x00,
  0x0c, 0x00, 0x00, 0x00, 0x08, 0x00, 0x0c, 0x00, 0x04, 0x00, 0x08, 0x00,
  0x08, 0x00, 0x00, 0x00, 0x08, 0x00, 0x00, 0x00, 0x0b, 0x00, 0x00, 0x00,
  0x13, 0x00, 0x00, 0x00, 0x6d, 0x69, 0x6e, 0x5f, 0x72, 0x75, 0x6e, 0x74,
  0x69, 0x6d, 0x65, 0x5f, 0x76, 0x65, 0x72, 0x73, 0x69, 0x6f, 0x6e, 0x00,
  0x0c, 0x00, 0x00, 0x00, 0x08, 0x06, 0x00, 0x00, 0xf4, 0x05, 0x00, 0x00,
  0xd8, 0x05, 0x00, 0x00, 0x74, 0x05, 0x00, 0x00, 0x20, 0x05, 0x00, 0x00,
  0xcc, 0x04, 0x00, 0x00, 0xb8, 0x00, 0x00, 0x00, 0x64, 0x00, 0x00, 0x00,
  0x58, 0x00, 0x00, 0x00, 0x44, 0x00, 0x00, 0x00, 0x30, 0x00, 0x00, 0x00,
  0x04, 0x00, 0x00, 0x00, 0x56, 0xfa, 0xff, 0xff, 0x04, 0x00, 0x00, 0x00,
  0x10, 0x00, 0x00, 0x00, 0x31, 0x2e, 0x35, 0x2e, 0x30, 0x00, 0x00, 0x00,
  0x00, 0x00, 0x00, 0x00, 0x00, 0x00, 0x00, 0x00, 0x00, 0x00, 0x00, 0x00,
  0x00, 0x00, 0x00, 0x00, 0x00, 0x00, 0x00, 0x00, 0xc8, 0xf5, 0xff, 0xff,
  0x00, 0x00, 0x00, 0x00, 0x00, 0x00, 0x00, 0x00, 0x00, 0x00, 0x00, 0x00,
  0xd8, 0xf5, 0xff, 0xff, 0x00, 0x00, 0x00, 0x00, 0x00, 0x00, 0x00, 0x00,
  0x00, 0x00, 0x00, 0x00, 0xe8, 0xf5, 0xff, 0xff, 0x00, 0x00, 0x00, 0x00,
  0xa6, 0xfa, 0xff, 0xff, 0x04, 0x00, 0x00, 0x00, 0x40, 0x00, 0x00, 0x00,
  0x87, 0xd7, 0x5d, 0xbe, 0x28, 0x45, 0xa2, 0x3e, 0xc4, 0x81, 0x44, 0x3f,
  0xa6, 0x8d, 0x29, 0xbf, 0xbb, 0x92, 0x4c, 0xbe, 0x42, 0xef, 0x76, 0xbe,
  0xa0, 0x93, 0x25, 0xbf, 0x02, 0x55, 0xb8, 0x3e, 0x5e, 0x9b, 0x7b, 0x3f,
  0xb7, 0x91, 0x08, 0x40, 0xb1, 0x56, 0x52, 0x3f, 0x09, 0x90, 0x80, 0xbf,
  0x02, 0xb1, 0x8b, 0x3f, 0x54, 0x0d, 0xc9, 0x3e, 0xc2, 0xcf, 0x7e, 0x3e,
  0x80, 0xbb, 0x4a, 0xbc, 0x00, 0x00, 0x00, 0x00, 0xf6, 0xfa, 0xff, 0xff,
  0x04, 0x00, 0x00, 0x00, 0x00, 0x04, 0x00, 0x00, 0x32, 0x62, 0x55, 0x3e,
  0x07, 0x89, 0x83, 0x3e, 0xe1, 0x27, 0x55, 0xbe, 0xb6, 0x4e, 0xf2, 0x3e,
  0x84, 0x19, 0xc1, 0xbe, 0x37, 0x58, 0x97, 0x3e, 0x06, 0xce, 0x00, 0xbf,
  0x08, 0x2a, 0x24, 0xbe, 0x20, 0x96, 0x65, 0xbc, 0xc1, 0xf8, 0x1f, 0x3d,
  0x72, 0x92, 0xaf, 0xbd, 0x2b, 0x7e, 0x87, 0x3e, 0x94, 0xf7, 0xfe, 0x3d,
  0x30, 0x52, 0x56, 0x3d, 0x60, 0x60, 0xa6, 0xbd, 0x9e, 0x48, 0xea, 0x3e,
  0x5b, 0x90, 0x7e, 0xbe, 0x75, 0x5f, 0x53, 0xbe, 0x1f, 0x61, 0xd3, 0x3e,
  0xa8, 0xae, 0x0d, 0x3d, 0xe3, 0xc1, 0x83, 0x3e, 0x12, 0x89, 0x9d, 0xbe,
  0x21, 0x98, 0xa2, 0xbe, 0xa8, 0x8e, 0x83, 0xbe, 0xf0, 0x0a, 0x5c, 0x3d,
  0x9b, 0xfe, 0x8a, 0x3e, 0xf4, 0x48, 0xb8, 0xbd, 0xa4, 0xaa, 0x1c, 0xbe,
  0x9a, 0x3d, 0x61, 0x3e, 0xc9, 0x18, 0x8e, 0x3e, 0xe4, 0x55, 0xb4, 0xbe,
  0x6f, 0x9a, 0xba, 0xbe, 0x79, 0xf0, 0x5f, 0xbe, 0x9b, 0xcc, 0xf4, 0x3d,
  0x77, 0x7a, 0xd8, 0x3e, 0x96, 0x6f, 0x94, 0xbd, 0x74, 0x7c, 0x79, 0xbe,
  0xf1, 0x86, 0x56, 0x3d, 0x1f, 0x74, 0x26, 0xbf, 0x49, 0xf0, 0xe4, 0x3c,
  0xfc, 0x24, 0xab, 0xbe, 0x66, 0xa1, 0xa4, 0xba, 0x63, 0x05, 0xda, 0xbe,
  0x28, 0x26, 0x2a, 0xbe, 0x48, 0xfd, 0x2d, 0xbe, 0xb8, 0x2a, 0x6b, 0x3d,
  0x48, 0x40, 0x72, 0xbd, 0xd8, 0xbc, 0x40, 0x3d, 0x10, 0xe6, 0xc7, 0x3c,
  0xef, 0x23, 0x86, 0x3d, 0xa8, 0x53, 0x0f, 0x3d, 0x68, 0x6d, 0x2a, 0x3f,
  0x00, 0x48, 0x7b, 0x3a, 0x41, 0x93, 0x11, 0xbf, 0xa6, 0xbf, 0xb8, 0xbe,
  0x21, 0x58, 0x98, 0xbe, 0x33, 0x0e, 0x8a, 0x3e, 0x5a, 0x94, 0x27, 0xbe,
  0x7b, 0xd3, 0xdf, 0xbe, 0xe4, 0x09, 0x76, 0xbe, 0xde, 0x4f, 0x30, 0x3e,
  0xad, 0x0d, 0xbf, 0xbe, 0x2a, 0xc8, 0x36, 0xbe, 0x8d, 0xe6, 0x86, 0x3e,
  0x2e, 0x6e, 0x3f, 0x3e, 0x8e, 0x21, 0x1f, 0x3d, 0xca, 0x17, 0x82, 0xbe,
  0x60, 0x36, 0x9f, 0xbe, 0x40, 0x8d, 0x76, 0x3c, 0xbc, 0x5c, 0x11, 0xbd,
  0xa6, 0xdc, 0x9e, 0xbe, 0x64, 0xef, 0x81, 0xbd, 0x4c, 0x47, 0x8b, 0x3d,
  0x78, 0x30, 0x88, 0x3e, 0x10, 0xa8, 0x73, 0x3e, 0xb6, 0x07, 0x19, 0x3e,
  0xf4, 0x28, 0xbd, 0x3d, 0x34, 0x1e, 0xdc, 0x3d, 0xda, 0x93, 0x7b, 0x3e,
  0xed, 0x8a, 0x86, 0xbc, 0xc9, 0x7a, 0x4a, 0xbe, 0x60, 0xa2, 0xf7, 0x3c,
  0xa4, 0x7c, 0x21, 0xbe, 0x98, 0x3a, 0xd2, 0xbe, 0x80, 0x53, 0x28, 0xbe,
  0x94, 0xfa, 0x09, 0xbe, 0x3e, 0xce, 0x52, 0x3e, 0x58, 0xe4, 0x2b, 0xbe,
  0xc8, 0x84, 0xc8, 0xbd, 0x28, 0xd2, 0x63, 0xbe, 0x44, 0x7d, 0x62, 0xbe,
  0x04, 0x6e, 0x8c, 0xbe, 0xca, 0x6e, 0x44, 0x3e, 0xa0, 0xd2, 0x9d, 0xbd,
  0x80, 0x1b, 0x22, 0xbc, 0x3e, 0xb5, 0x23, 0xbe, 0xa8, 0x57, 0x10, 0xbe,
  0x66, 0xd5, 0x98, 0x3e, 0x98, 0x71, 0x81, 0xbe, 0x20, 0x1b, 0x06, 0xbe,
  0xe0, 0xb5, 0xd7, 0xbc, 0x24, 0xe9, 0x9e, 0xbe, 0x44, 0x5b, 0x95, 0xbe,
  0x78, 0x9d, 0x74, 0x3e, 0x00, 0x44, 0x85, 0x3c, 0x51, 0xcb, 0x88, 0x3e,
  0x2d, 0x86, 0x04, 0x3e, 0x23, 0xb9, 0xd1, 0xbe, 0xfd, 0x7d, 0x9f, 0x3e,
  0x7a, 0x6a, 0x28, 0xbe, 0xdc, 0x49, 0x9a, 0xbe, 0x1a, 0xdf, 0x7a, 0x3e,
  0x7f, 0x18, 0xda, 0xbe, 0xa1, 0x03, 0x96, 0x3e, 0x00, 0xc2, 0x35, 0x3b,
  0x4e, 0x51, 0xb4, 0xbe, 0x4e, 0x25, 0x50, 0x3e, 0x5e, 0x73, 0x2d, 0xbe,
  0x32, 0xdd, 0x1e, 0x3e, 0x9f, 0x1d, 0x89, 0x3e, 0x70, 0xfa, 0xa7, 0xbe,
  0x7a, 0x16, 0x24, 0xbe, 0x8d, 0x89, 0x52, 0xbe, 0x52, 0x5e, 0x7d, 0x3e,
  0x3e, 0x30, 0x07, 0xbe, 0x80, 0x66, 0xbe, 0xbd, 0x2b, 0x38, 0x8e, 0xbe,
  0x5f, 0xef, 0xc4, 0xbe, 0x71, 0x70, 0xc1, 0xbe, 0xbd, 0x74, 0x9c, 0x3e,
  0x10, 0x67, 0x00, 0x3d, 0x18, 0xf1, 0x96, 0xbe, 0x8c, 0x20, 0xae, 0x3d,
  0x47, 0x08, 0xc7, 0xbe, 0x3b, 0x0c, 0x88, 0xbf, 0xfe, 0xaf, 0x83, 0x3e,
  0xe6, 0x41, 0x29, 0x3e, 0xcc, 0x8e, 0xcf, 0xbe, 0xab, 0x7b, 0x3a, 0xbd,
  0xab, 0xe9, 0x9f, 0x3e, 0x5b, 0x10, 0xb7, 0x3e, 0xfe, 0x14, 0x80, 0xbe,
  0x7e, 0x9f, 0x6d, 0x3e, 0xee, 0x97, 0x62, 0x3e, 0x30, 0xa4, 0xe2, 0xbd,
  0x4e, 0x8a, 0x1a, 0xbe, 0xc2, 0xa2, 0xa0, 0xbe, 0x17, 0x83, 0xe4, 0x3c,
  0xf2, 0xdf, 0x48, 0x3e, 0xa6, 0xc7, 0xf9, 0x3e, 0xec, 0x4b, 0x9c, 0x3d,
  0xd8, 0xac, 0xa1, 0x3e, 0xd8, 0x6e, 0xd3, 0xbe, 0x1f, 0xa1, 0x9d, 0xbe,
  0x08, 0x93, 0x3b, 0x3e, 0x2a, 0x4a, 0xa5, 0xbe, 0xb9, 0x32, 0x77, 0xbe,
  0x7a, 0xb1, 0x6c, 0x3e, 0xb1, 0x7c, 0x86, 0xbe, 0x6e, 0x2d, 0xcc, 0xbe,
  0x12, 0x3e, 0x65, 0x3e, 0xd4, 0x89, 0xfc, 0x3d, 0xc0, 0xcc, 0xe6, 0xbd,
  0x5d, 0xeb, 0x65, 0x3e, 0x06, 0x5a, 0x0b, 0x3e, 0x05, 0xb1, 0x05, 0xbf,
  0xda, 0x73, 0xdc, 0xbe, 0x62, 0x0f, 0xd3, 0x3e, 0xad, 0x43, 0xdd, 0x3e,
  0xa4, 0xe3, 0xaa, 0x3d, 0xdc, 0x51, 0x0d, 0xbf, 0x28, 0xd4, 0x1b, 0xbd,
  0xce, 0x35, 0x80, 0xbe, 0xbf, 0x47, 0x96, 0x3e, 0x4a, 0xf8, 0x25, 0xbe,
  0x21, 0x11, 0x2e, 0x3e, 0x12, 0xfe, 0x61, 0x3e, 0xa6, 0x0f, 0x7b, 0xbe,
  0xb2, 0x8f, 0xae, 0xbe, 0x06, 0xb8, 0xe7, 0x3d, 0x0e, 0x91, 0x02, 0x3e,
  0x8c, 0x2f, 0x55, 0x3c, 0x5f, 0x2b, 0xb0, 0x3e, 0x53, 0x1f, 0xad, 0xbe,
  0xd6, 0xae, 0xd3, 0xbe, 0x81, 0x0d, 0x52, 0xbf, 0xb4, 0x79, 0x05, 0x3e,
  0x14, 0x70, 0xa5, 0xbe, 0x4c, 0x09, 0x98, 0xbd, 0xf6, 0x73, 0x0c, 0x3e,
  0xa1, 0x92, 0xbd, 0xbe, 0x43, 0xcc, 0xed, 0x3e, 0x53, 0x69, 0xd9, 0x3e,
  0xcc, 0x39, 0x1c, 0xbe, 0xd4, 0x0b, 0xc6, 0xbd, 0x06, 0x32, 0x55, 0x3e,
  0xa3, 0x31, 0xc0, 0xbe, 0xd9, 0x8c, 0x9a, 0xbe, 0x54, 0xb7, 0x20, 0xbf,
  0xae, 0x9c, 0x34, 0xbe, 0x62, 0xe1, 0xdc, 0xbe, 0x6f, 0xed, 0x7b, 0x3e,
  0x1a, 0xe3, 0xc4, 0xbc, 0xea, 0x7c, 0x1a, 0x3e, 0xc4, 0xf9, 0x2d, 0xbe,
  0xb0, 0x2c, 0x21, 0x3d, 0xb3, 0x94, 0xcd, 0x3e, 0xad, 0x44, 0xa0, 0x3e,
  0xd8, 0x2e, 0x1a, 0x3d, 0x77, 0x8f, 0x3e, 0x3e, 0x29, 0x6d, 0xc0, 0x3e,
  0x44, 0xf8, 0xbf, 0x3d, 0xfd, 0xe4, 0x8a, 0x3e, 0x3c, 0x2d, 0x33, 0x3e,
  0x0a, 0x3d, 0x0b, 0x3f, 0xeb, 0xd6, 0x9b, 0x3e, 0x3b, 0x33, 0xb3, 0x3e,
  0xc1, 0xc7, 0x9d, 0xbe, 0xcb, 0x97, 0xc2, 0x3e, 0xe6, 0x92, 0x81, 0xbe,
  0x45, 0x06, 0xb6, 0xbe, 0x59, 0x9c, 0x5d, 0xbe, 0x1a, 0x9d, 0x41, 0x3e,
  0x85, 0x2b, 0x06, 0x3e, 0x48, 0x88, 0x88, 0xbe, 0xb6, 0xbc, 0xc0, 0x3e,
  0xb0, 0xc8, 0xc5, 0xbe, 0x03, 0x05, 0xe0, 0xbe, 0xf0, 0x41, 0x9f, 0xbd,
  0x9f, 0x80, 0x82, 0x3e, 0x2f, 0x32, 0xb1, 0x3e, 0x2b, 0x92, 0x1d, 0x3e,
  0x69, 0xd5, 0x5f, 0xbe, 0x33, 0x3d, 0x6f, 0x3e, 0x85, 0xaa, 0xa1, 0x3d,
  0x90, 0xa3, 0xe5, 0xbc, 0xe6, 0x62, 0x7a, 0x3e, 0x97, 0xfe, 0xc6, 0x3e,
  0x8e, 0x4c, 0x5c, 0x3e, 0xf2, 0xb9, 0x6e, 0x3d, 0x60, 0x49, 0x94, 0xbc,
  0xb4, 0x77, 0x71, 0xbe, 0x61, 0x60, 0xac, 0xbe, 0x99, 0x11, 0xc1, 0xbe,
  0x30, 0xa2, 0x74, 0x3d, 0xfc, 0x4c, 0xb1, 0xbe, 0xa7, 0xa6, 0xa8, 0xbe,
  0x01, 0x82, 0x3e, 0xbe, 0x72, 0x3c, 0x41, 0x3e, 0x69, 0x96, 0x98, 0x3e,
  0x3c, 0x03, 0xf1, 0x3d, 0x22, 0x28, 0x89, 0xbe, 0x78, 0x59, 0xe1, 0xbd,
  0x1a, 0xb4, 0x6f, 0x3e, 0x21, 0xe2, 0x94, 0xbe, 0xee, 0xb2, 0x94, 0xbe,
  0x00, 0x00, 0x00, 0x00, 0x06, 0xff, 0xff, 0xff, 0x04, 0x00, 0x00, 0x00,
  0x40, 0x00, 0x00, 0x00, 0xfe, 0x77, 0xb1, 0xbe, 0xaf, 0x37, 0xbf, 0x3e,
  0x26, 0x64, 0xcb, 0xbe, 0xf2, 0xfc, 0x01, 0x3b, 0xb0, 0x7d, 0x51, 0xbd,
  0x70, 0x2c, 0x11, 0x3f, 0xfd, 0x97, 0x42, 0x3e, 0x75, 0x6b, 0x05, 0x3f,
  0xe3, 0x34, 0x15, 0xbf, 0xe9, 0x45, 0xc5, 0x3e, 0xba, 0x5b, 0x0f, 0x3f,
  0x5a, 0x5a, 0xa5, 0xbe, 0x3c, 0xdd, 0xe0, 0xbe, 0x73, 0xa4, 0xae, 0xbe,
  0x50, 0xa8, 0xe2, 0xbe, 0x27, 0xc8, 0x4d, 0x3e, 0x00, 0x00, 0x00, 0x00,
  0x56, 0xff, 0xff, 0xff, 0x04, 0x00, 0x00, 0x00, 0x40, 0x00, 0x00, 0x00,
  0x00, 0x00, 0x00, 0x00, 0x4c, 0x6d, 0xb0, 0x3e, 0x00, 0x00, 0x00, 0x00,
  0xde, 0x95, 0xb9, 0xbc, 0x00, 0x00, 0x00, 0x00, 0xa4, 0xcc, 0x61, 0xbf,
  0x01, 0x40, 0xfe, 0xbe, 0x2c, 0x7a, 0xec, 0xbc, 0x00, 0x00, 0x00, 0x00,
  0x2e, 0x47, 0x8f, 0x3e, 0x18, 0x35, 0xfa, 0xbe, 0x00, 0x00, 0x00, 0x00,
  0x00, 0x00, 0x00, 0x00, 0x00, 0x00, 0x00, 0x00, 0x00, 0x00, 0x00, 0x00,
  0xfd, 0xd6, 0x70, 0x3f, 0x00, 0x00, 0x00, 0x00, 0xa6, 0xff, 0xff, 0xff,
  0x04, 0x00, 0x00, 0x00, 0x40, 0x00, 0x00, 0x00, 0xb2, 0xf7, 0x99, 0x3e,
  0x00, 0x00, 0x00, 0x00, 0x81, 0xc6, 0xbd, 0x3e, 0x33, 0x8e, 0xe5, 0x3e,
  0x6e, 0x93, 0x80, 0x3e, 0x00, 0x00, 0x00, 0x00, 0xca, 0x8b, 0x2b, 0x3e,
  0x00, 0x00, 0x00, 0x00, 0x26, 0x6b, 0xb8, 0x3e, 0x9c, 0xf7, 0xf3, 0xbe,
  0x0b, 0x67, 0xb3, 0x3e, 0x24, 0x30, 0xf9, 0x3e, 0xe5, 0x52, 0xb7, 0x3e,
  0xce, 0xdf, 0xba, 0xbe, 0x43, 0xef, 0x80, 0xbe, 0x00, 0x00, 0x00, 0x00,
  0x00, 0x00, 0x00, 0x00, 0x00, 0x00, 0x00, 0x00, 0x00, 0x00, 0x00, 0x00,
  0x00, 0x00, 0x06, 0x00, 0x08, 0x00, 0x04, 0x00, 0x06, 0x00, 0x00, 0x00,
  0x04, 0x00, 0x00, 0x00, 0x04, 0x00, 0x00, 0x00, 0x77, 0xa9, 0xb7, 0xbe,
  0x00, 0x00, 0x00, 0x00, 0x00, 0x00, 0x00, 0x00, 0x68, 0xfb, 0xff, 0xff,
  0x00, 0x00, 0x00, 0x00, 0x00, 0x00, 0x00, 0x00, 0x00, 0x00, 0x00, 0x00,
  0x78, 0xfb, 0xff, 0xff, 0x00, 0x00, 0x00, 0x00, 0x00, 0x00, 0x00, 0x00,
  0x00, 0x00, 0x00, 0x00, 0x0f, 0x00, 0x00, 0x00, 0x4d, 0x4c, 0x49, 0x52,
  0x20, 0x43, 0x6f, 0x6e, 0x76, 0x65, 0x72, 0x74, 0x65, 0x64, 0x2e, 0x00,
  0x01, 0x00, 0x00, 0x00, 0x14, 0x00, 0x00, 0x00, 0x00, 0x00, 0x0e, 0x00,
  0x18, 0x00, 0x04, 0x00, 0x08, 0x00, 0x0c, 0x00, 0x10, 0x00, 0x14, 0x00,
  0x0e, 0x00, 0x00, 0x00, 0x00, 0x01, 0x00, 0x00, 0xf4, 0x00, 0x00, 0x00,
  0xe8, 0x00, 0x00, 0x00, 0x14, 0x00, 0x00, 0x00, 0x04, 0x00, 0x00, 0x00,
  0x04, 0x00, 0x00, 0x00, 0x6d, 0x61, 0x69, 0x6e, 0x00, 0x00, 0x00, 0x00,
  0x03, 0x00, 0x00, 0x00, 0x90, 0x00, 0x00, 0x00, 0x48, 0x00, 0x00, 0x00,
  0x04, 0x00, 0x00, 0x00, 0xce, 0xff, 0xff, 0xff, 0x00, 0x00, 0x00, 0x08,
  0x18, 0x00, 0x00, 0x00, 0x0c, 0x00, 0x00, 0x00, 0x04, 0x00, 0x00, 0x00,
  0xfc, 0xfb, 0xff, 0xff, 0x01, 0x00, 0x00, 0x00, 0x09, 0x00, 0x00, 0x00,
  0x03, 0x00, 0x00, 0x00, 0x08, 0x00, 0x00, 0x00, 0x06, 0x00, 0x00, 0x00,
  0x01, 0x00, 0x00, 0x00, 0x00, 0x00, 0x0e, 0x00, 0x14, 0x00, 0x00, 0x00,
  0x08, 0x00, 0x0c, 0x00, 0x07, 0x00, 0x10, 0x00, 0x0e, 0x00, 0x00, 0x00,
  0x00, 0x00, 0x00, 0x08, 0x1c, 0x00, 0x00, 0x00, 0x10, 0x00, 0x00, 0x00,
  0x04, 0x00, 0x00, 0x00, 0xba, 0xff, 0xff, 0xff, 0x00, 0x00, 0x00, 0x01,
  0x01, 0x00, 0x00, 0x00, 0x08, 0x00, 0x00, 0x00, 0x03, 0x00, 0x00, 0x00,
  0x07, 0x00, 0x00, 0x00, 0x05, 0x00, 0x00, 0x00, 0x02, 0x00, 0x00, 0x00,
  0x00, 0x00, 0x0e, 0x00, 0x16, 0x00, 0x00, 0x00, 0x08, 0x00, 0x0c, 0x00,
  0x07, 0x00, 0x10, 0x00, 0x0e, 0x00, 0x00, 0x00, 0x00, 0x00, 0x00, 0x08,
  0x24, 0x00, 0x00, 0x00, 0x18, 0x00, 0x00, 0x00, 0x0c, 0x00, 0x00, 0x00,
  0x00, 0x00, 0x06, 0x00, 0x08, 0x00, 0x07, 0x00, 0x06, 0x00, 0x00, 0x00,
  0x00, 0x00, 0x00, 0x01, 0x01, 0x00, 0x00, 0x00, 0x07, 0x00, 0x00, 0x00,
  0x03, 0x00, 0x00, 0x00, 0x00, 0x00, 0x00, 0x00, 0x04, 0x00, 0x00, 0x00,
  0x03, 0x00, 0x00, 0x00, 0x01, 0x00, 0x00, 0x00, 0x09, 0x00, 0x00, 0x00,
  0x01, 0x00, 0x00, 0x00, 0x00, 0x00, 0x00, 0x00, 0x0a, 0x00, 0x00, 0x00,
  0x20, 0x03, 0x00, 0x00, 0xd4, 0x02, 0x00, 0x00, 0x8c, 0x02, 0x00, 0x00,
  0x54, 0x02, 0x00, 0x00, 0x0c, 0x02, 0x00, 0x00, 0xc4, 0x01, 0x00, 0x00,
  0x7c, 0x01, 0x00, 0x00, 0xec, 0x00, 0x00, 0x00, 0x5c, 0x00, 0x00, 0x00,
  0x04, 0x00, 0x00, 0x00, 0x1c, 0xfd, 0xff, 0xff, 0x44, 0x00, 0x00, 0x00,
  0x0a, 0x00, 0x00, 0x00, 0x1c, 0x00, 0x00, 0x00, 0x14, 0x00, 0x00, 0x00,
  0x04, 0x00, 0x00, 0x00, 0x02, 0x00, 0x00, 0x00, 0xff, 0xff, 0xff, 0xff,
  0x01, 0x00, 0x00, 0x00, 0x08, 0xfd, 0xff, 0xff, 0x19, 0x00, 0x00, 0x00,
  0x53, 0x74, 0x61, 0x74, 0x65, 0x66, 0x75, 0x6c, 0x50, 0x61, 0x72, 0x74,
  0x69, 0x74, 0x69, 0x6f, 0x6e, 0x65, 0x64, 0x43, 0x61, 0x6c, 0x6c, 0x3a,
  0x30, 0x00, 0x00, 0x00, 0x02, 0x00, 0x00, 0x00, 0x01, 0x00, 0x00, 0x00,
  0x01, 0x00, 0x00, 0x00, 0x70, 0xfd, 0xff, 0xff, 0x7c, 0x00, 0x00, 0x00,
  0x09, 0x00, 0x00, 0x00, 0x1c, 0x00, 0x00, 0x00, 0x14, 0x00, 0x00, 0x00,
  0x04, 0x00, 0x00, 0x00, 0x02, 0x00, 0x00, 0x00, 0xff, 0xff, 0xff, 0xff,
  0x10, 0x00, 0x00, 0x00, 0x5c, 0xfd, 0xff, 0xff, 0x52, 0x00, 0x00, 0x00,
  0x73, 0x65, 0x71, 0x75, 0x65, 0x6e, 0x74, 0x69, 0x61, 0x6c, 0x5f, 0x32,
  0x2f, 0x64, 0x65, 0x6e, 0x73, 0x65, 0x5f, 0x37, 0x2f, 0x4d, 0x61, 0x74,
  0x4d, 0x75, 0x6c, 0x3b, 0x73, 0x65, 0x71, 0x75, 0x65, 0x6e, 0x74, 0x69,
  0x61, 0x6c, 0x5f, 0x32, 0x2f, 0x64, 0x65, 0x6e, 0x73, 0x65, 0x5f, 0x37,
  0x2f, 0x52, 0x65, 0x6c, 0x75, 0x3b, 0x73, 0x65, 0x71, 0x75, 0x65, 0x6e,
  0x74, 0x69, 0x61, 0x6c, 0x5f, 0x32, 0x2f, 0x64, 0x65, 0x6e, 0x73, 0x65,
  0x5f, 0x37, 0x2f, 0x42, 0x69, 0x61, 0x73, 0x41, 0x64, 0x64, 0x00, 0x00,
  0x02, 0x00, 0x00, 0x00, 0x01, 0x00, 0x00, 0x00, 0x10, 0x00, 0x00, 0x00,
  0xfc, 0xfd, 0xff, 0xff, 0x7c, 0x00, 0x00, 0x00, 0x08, 0x00, 0x00, 0x00,
  0x1c, 0x00, 0x00, 0x00, 0x14, 0x00, 0x00, 0x00, 0x04, 0x00, 0x00, 0x00,
  0x02, 0x00, 0x00, 0x00, 0xff, 0xff, 0xff, 0xff, 0x10, 0x00, 0x00, 0x00,
  0xe8, 0xfd, 0xff, 0xff, 0x52, 0x00, 0x00, 0x00, 0x73, 0x65, 0x71, 0x75,
  0x65, 0x6e, 0x74, 0x69, 0x61, 0x6c, 0x5f, 0x32, 0x2f, 0x64, 0x65, 0x6e,
  0x73, 0x65, 0x5f, 0x36, 0x2f, 0x4d, 0x61, 0x74, 0x4d, 0x75, 0x6c, 0x3b,
  0x73, 0x65, 0x71, 0x75, 0x65, 0x6e, 0x74, 0x69, 0x61, 0x6c, 0x5f, 0x32,
  0x2f, 0x64, 0x65, 0x6e, 0x73, 0x65, 0x5f, 0x36, 0x2f, 0x52, 0x65, 0x6c,
  0x75, 0x3b, 0x73, 0x65, 0x71, 0x75, 0x65, 0x6e, 0x74, 0x69, 0x61, 0x6c,
  0x5f, 0x32, 0x2f, 0x64, 0x65, 0x6e, 0x73, 0x65, 0x5f, 0x36, 0x2f, 0x42,
  0x69, 0x61, 0x73, 0x41, 0x64, 0x64, 0x00, 0x00, 0x02, 0x00, 0x00, 0x00,
  0x01, 0x00, 0x00, 0x00, 0x10, 0x00, 0x00, 0x00, 0xca, 0xfe, 0xff, 0xff,
  0x34, 0x00, 0x00, 0x00, 0x07, 0x00, 0x00, 0x00, 0x0c, 0x00, 0x00, 0x00,
  0x04, 0x00, 0x00, 0x00, 0x64, 0xfe, 0xff, 0xff, 0x1b, 0x00, 0x00, 0x00,
  0x73, 0x65, 0x71, 0x75, 0x65, 0x6e, 0x74, 0x69, 0x61, 0x6c, 0x5f, 0x32,
  0x2f, 0x64, 0x65, 0x6e, 0x73, 0x65, 0x5f, 0x38, 0x2f, 0x4d, 0x61, 0x74,
  0x4d, 0x75, 0x6c, 0x00, 0x02, 0x00, 0x00, 0x00, 0x01, 0x00, 0x00, 0x00,
  0x10, 0x00, 0x00, 0x00, 0x0e, 0xff, 0xff, 0xff, 0x34, 0x00, 0x00, 0x00,
  0x06, 0x00, 0x00, 0x00, 0x0c, 0x00, 0x00, 0x00, 0x04, 0x00, 0x00, 0x00,
  0xa8, 0xfe, 0xff, 0xff, 0x1b, 0x00, 0x00, 0x00, 0x73, 0x65, 0x71, 0x75,
  0x65, 0x6e, 0x74, 0x69, 0x61, 0x6c, 0x5f, 0x32, 0x2f, 0x64, 0x65, 0x6e,
  0x73, 0x65, 0x5f, 0x37, 0x2f, 0x4d, 0x61, 0x74, 0x4d, 0x75, 0x6c, 0x00,
  0x02, 0x00, 0x00, 0x00, 0x10, 0x00, 0x00, 0x00, 0x10, 0x00, 0x00, 0x00,
  0x52, 0xff, 0xff, 0xff, 0x34, 0x00, 0x00, 0x00, 0x05, 0x00, 0x00, 0x00,
  0x0c, 0x00, 0x00, 0x00, 0x04, 0x00, 0x00, 0x00, 0xec, 0xfe, 0xff, 0xff,
  0x1b, 0x00, 0x00, 0x00, 0x73, 0x65, 0x71, 0x75, 0x65, 0x6e, 0x74, 0x69,
  0x61, 0x6c, 0x5f, 0x32, 0x2f, 0x64, 0x65, 0x6e, 0x73, 0x65, 0x5f, 0x36,
  0x2f, 0x4d, 0x61, 0x74, 0x4d, 0x75, 0x6c, 0x00, 0x02, 0x00, 0x00, 0x00,
  0x10, 0x00, 0x00, 0x00, 0x01, 0x00, 0x00, 0x00, 0x96, 0xff, 0xff, 0xff,
  0x28, 0x00, 0x00, 0x00, 0x04, 0x00, 0x00, 0x00, 0x0c, 0x00, 0x00, 0x00,
  0x04, 0x00, 0x00, 0x00, 0x30, 0xff, 0xff, 0xff, 0x0c, 0x00, 0x00, 0x00,
  0x64, 0x65, 0x6e, 0x73, 0x65, 0x5f, 0x36, 0x2f, 0x62, 0x69, 0x61, 0x73,
  0x00, 0x00, 0x00, 0x00, 0x01, 0x00, 0x00, 0x00, 0x10, 0x00, 0x00, 0x00,
  0xca, 0xff, 0xff, 0xff, 0x28, 0x00, 0x00, 0x00, 0x03, 0x00, 0x00, 0x00,
  0x0c, 0x00, 0x00, 0x00, 0x04, 0x00, 0x00, 0x00, 0x64, 0xff, 0xff, 0xff,
  0x0c, 0x00, 0x00, 0x00, 0x64, 0x65, 0x6e, 0x73, 0x65, 0x5f, 0x37, 0x2f,
  0x62, 0x69, 0x61, 0x73, 0x00, 0x00, 0x00, 0x00, 0x01, 0x00, 0x00, 0x00,
  0x10, 0x00, 0x00, 0x00, 0x00, 0x00, 0x0e, 0x00, 0x14, 0x00, 0x04, 0x00,
  0x00, 0x00, 0x08, 0x00, 0x0c, 0x00, 0x10, 0x00, 0x0e, 0x00, 0x00, 0x00,
  0x28, 0x00, 0x00, 0x00, 0x02, 0x00, 0x00, 0x00, 0x0c, 0x00, 0x00, 0x00,
  0x04, 0x00, 0x00, 0x00, 0xa8, 0xff, 0xff, 0xff, 0x0c, 0x00, 0x00, 0x00,
  0x64, 0x65, 0x6e, 0x73, 0x65, 0x5f, 0x38, 0x2f, 0x62, 0x69, 0x61, 0x73,
  0x00, 0x00, 0x00, 0x00, 0x01, 0x00, 0x00, 0x00, 0x01, 0x00, 0x00, 0x00,
  0x14, 0x00, 0x18, 0x00, 0x04, 0x00, 0x00, 0x00, 0x08, 0x00, 0x0c, 0x00,
  0x10, 0x00, 0x00, 0x00, 0x00, 0x00, 0x14, 0x00, 0x14, 0x00, 0x00, 0x00,
  0x4c, 0x00, 0x00, 0x00, 0x01, 0x00, 0x00, 0x00, 0x20, 0x00, 0x00, 0x00,
  0x18, 0x00, 0x00, 0x00, 0x04, 0x00, 0x00, 0x00, 0x02, 0x00, 0x00, 0x00,
  0xff, 0xff, 0xff, 0xff, 0x01, 0x00, 0x00, 0x00, 0x04, 0x00, 0x04, 0x00,
  0x04, 0x00, 0x00, 0x00, 0x1f, 0x00, 0x00, 0x00, 0x73, 0x65, 0x72, 0x76,
  0x69, 0x6e, 0x67, 0x5f, 0x64, 0x65, 0x66, 0x61, 0x75, 0x6c, 0x74, 0x5f,
  0x64, 0x65, 0x6e, 0x73, 0x65, 0x5f, 0x36, 0x5f, 0x69, 0x6e, 0x70, 0x75,
  0x74, 0x3a, 0x30, 0x00, 0x02, 0x00, 0x00, 0x00, 0x01, 0x00, 0x00, 0x00,
  0x01, 0x00, 0x00, 0x00, 0x01, 0x00, 0x00, 0x00, 0x10, 0x00, 0x00, 0x00,
  0x0c, 0x00, 0x10, 0x00, 0x07, 0x00, 0x00, 0x00, 0x08, 0x00, 0x0c, 0x00,
  0x0c, 0x00, 0x00, 0x00, 0x00, 0x00, 0x00, 0x09, 0x09, 0x00, 0x00, 0x00,
  0x09, 0x00, 0x00, 0x00
};
unsigned int sine_model_quantized_tflite_len = 3040;
